#include "xor_data.h"

ai_handle ai_xor_data_weights_get(void)
{

  AI_ALIGNED(4)
  static const ai_u8 s_xor_weights[ 132 ] = {
    0xb3, 0xd5, 0xa9, 0xc0, 0x1b, 0x66, 0x97, 0x40, 0x3c, 0x19,
    0x26, 0xbf, 0xa5, 0xa7, 0xa8, 0xbe, 0xa0, 0x2a, 0x90, 0xc0,
    0xe6, 0x32, 0xa4, 0x40, 0x60, 0xeb, 0xa6, 0x3c, 0xba, 0x17,
    0x25, 0xbf, 0xd4, 0x58, 0xe8, 0x3f, 0x21, 0x14, 0xcc, 0x3f,
    0x7e, 0x84, 0x21, 0x3f, 0xa6, 0x9e, 0x46, 0xbe, 0xd8, 0x91,
    0x1b, 0xbe, 0x2b, 0x3b, 0x13, 0xbf, 0x33, 0x3a, 0xe7, 0xbd,
    0x7e, 0x3f, 0x61, 0x3d, 0xf8, 0xdb, 0x21, 0xc0, 0xde,
    0xa4, 0x76, 0xbe, 0xc2, 0x58, 0x15, 0x40, 0xb9, 0x49,
    0xe1, 0x3c, 0x41, 0x9e, 0xaa, 0x3e, 0xd2, 0x67, 0xc4,
    0x3d, 0x7d, 0x86, 0x9b, 0x3d, 0x71, 0xe2, 0xfd, 0xbc,
    0x4e, 0xd5, 0xea, 0x40, 0x23, 0xad, 0xa6, 0xbe, 0xf2,
    0x93, 0xde, 0xc0, 0x95, 0x38, 0xf7, 0x3e, 0xc1, 0x5f,
    0x0c, 0x40, 0x03, 0x5d, 0x9a, 0x3e, 0x9f, 0x70, 0xd1,
    0x3e, 0x67, 0xb9, 0x98, 0x3d, 0x6c, 0x6d, 0x73, 0x3f
  };

  return AI_HANDLE_PTR(s_xor_weights);
}

